unsigned char _home_heon_repositories_tinyML_projects_sin_wave_sine_model_quantized_tflite[] = {
  0x1c, 0x00, 0x00, 0x00, 0x54, 0x46, 0x4c, 0x33, 0x14, 0x00, 0x20, 0x00,
  0x1c, 0x00, 0x18, 0x00, 0x14, 0x00, 0x10, 0x00, 0x0c, 0x00, 0x00, 0x00,
  0x08, 0x00, 0x04, 0x00, 0x14, 0x00, 0x00, 0x00, 0x1c, 0x00, 0x00, 0x00,
  0x90, 0x00, 0x00, 0x00, 0xe8, 0x00, 0x00, 0x00, 0x04, 0x07, 0x00, 0x00,
  0x14, 0x07, 0x00, 0x00, 0x0c, 0x0c, 0x00, 0x00, 0x03, 0x00, 0x00, 0x00,
  0x01, 0x00, 0x00, 0x00, 0x10, 0x00, 0x00, 0x00, 0x00, 0x00, 0x0a, 0x00,
  0x10, 0x00, 0x0c, 0x00, 0x08, 0x00, 0x04, 0x00, 0x0a, 0x00, 0x00, 0x00,
  0x0c, 0x00, 0x00, 0x00, 0x1c, 0x00, 0x00, 0x00, 0x38, 0x00, 0x00, 0x00,
  0x0f, 0x00, 0x00, 0x00, 0x73, 0x65, 0x72, 0x76, 0x69, 0x6e, 0x67, 0x5f,
  0x64, 0x65, 0x66, 0x61, 0x75, 0x6c, 0x74, 0x00, 0x01, 0x00, 0x00, 0x00,
  0x04, 0x00, 0x00, 0x00, 0x98, 0xff, 0xff, 0xff, 0x09, 0x00, 0x00, 0x00,
  0x04, 0x00, 0x00, 0x00, 0x07, 0x00, 0x00, 0x00, 0x64, 0x65, 0x6e, 0x73,
  0x65, 0x5f, 0x32, 0x00, 0x01, 0x00, 0x00, 0x00, 0x04, 0x00, 0x00, 0x00,
  0xc6, 0xf9, 0xff, 0xff, 0x04, 0x00, 0x00, 0x00, 0x0b, 0x00, 0x00, 0x00,
  0x64, 0x65, 0x6e, 0x73, 0x65, 0x5f, 0x69, 0x6e, 0x70, 0x75, 0x74, 0x00,
  0x02, 0x00, 0x00, 0x00, 0x34, 0x00, 0x00, 0x00, 0x04, 0x00, 0x00, 0x00,
  0xdc, 0xff, 0xff, 0xff, 0x0c, 0x00, 0x00, 0x00, 0x04, 0x00, 0x00, 0x00,
  0x13, 0x00, 0x00, 0x00, 0x43, 0x4f, 0x4e, 0x56, 0x45, 0x52, 0x53, 0x49,
  0x4f, 0x4e, 0x5f, 0x4d, 0x45, 0x54, 0x41, 0x44, 0x41, 0x54, 0x41, 0x00,
  0x08, 0x00, 0x0c, 0x00, 0x08, 0x00, 0x04, 0x00, 0x08, 0x00, 0x00, 0x00,
  0x0b, 0x00, 0x00, 0x00, 0x04, 0x00, 0x00, 0x00, 0x13, 0x00, 0x00, 0x00,
  0x6d, 0x69, 0x6e, 0x5f, 0x72, 0x75, 0x6e, 0x74, 0x69, 0x6d, 0x65, 0x5f,
  0x76, 0x65, 0x72, 0x73, 0x69, 0x6f, 0x6e, 0x00, 0x0d, 0x00, 0x00, 0x00,
  0x18, 0x06, 0x00, 0x00, 0x10, 0x06, 0x00, 0x00, 0xc0, 0x05, 0x00, 0x00,
  0xa4, 0x05, 0x00, 0x00, 0x54, 0x05, 0x00, 0x00, 0x04, 0x05, 0x00, 0x00,
  0xf4, 0x00, 0x00, 0x00, 0xa4, 0x00, 0x00, 0x00, 0x9c, 0x00, 0x00, 0x00,
  0x94, 0x00, 0x00, 0x00, 0x8c, 0x00, 0x00, 0x00, 0x6c, 0x00, 0x00, 0x00,
  0x04, 0x00, 0x00, 0x00, 0x72, 0xfa, 0xff, 0xff, 0x04, 0x00, 0x00, 0x00,
  0x58, 0x00, 0x00, 0x00, 0x0c, 0x00, 0x00, 0x00, 0x08, 0x00, 0x0e, 0x00,
  0x08, 0x00, 0x04, 0x00, 0x08, 0x00, 0x00, 0x00, 0x10, 0x00, 0x00, 0x00,
  0x28, 0x00, 0x00, 0x00, 0x00, 0x00, 0x06, 0x00, 0x08, 0x00, 0x04, 0x00,
  0x06, 0x00, 0x00, 0x00, 0x04, 0x00, 0x00, 0x00, 0x01, 0x00, 0x00, 0x00,
  0xea, 0x03, 0x00, 0x00, 0x00, 0x00, 0x0a, 0x00, 0x10, 0x00, 0x0c, 0x00,
  0x08, 0x00, 0x04, 0x00, 0x0a, 0x00, 0x00, 0x00, 0x02, 0x00, 0x00, 0x00,
  0x02, 0x00, 0x00, 0x00, 0x04, 0x00, 0x00, 0x00, 0x06, 0x00, 0x00, 0x00,
  0x32, 0x2e, 0x31, 0x33, 0x2e, 0x31, 0x00, 0x00, 0xd6, 0xfa, 0xff, 0xff,
  0x04, 0x00, 0x00, 0x00, 0x10, 0x00, 0x00, 0x00, 0x31, 0x2e, 0x35, 0x2e,
  0x30, 0x00, 0x00, 0x00, 0x00, 0x00, 0x00, 0x00, 0x00, 0x00, 0x00, 0x00,
  0xc0, 0xf5, 0xff, 0xff, 0xc4, 0xf5, 0xff, 0xff, 0xc8, 0xf5, 0xff, 0xff,
  0xfe, 0xfa, 0xff, 0xff, 0x04, 0x00, 0x00, 0x00, 0x40, 0x00, 0x00, 0x00,
  0x28, 0x44, 0x8b, 0x3d, 0xcd, 0x17, 0xa4, 0x3e, 0x91, 0x0a, 0x94, 0x3e,
  0x92, 0xcf, 0x35, 0xbe, 0x72, 0xa3, 0x6e, 0xbe, 0xb5, 0xc0, 0x1e, 0xbf,
  0xad, 0x4a, 0xf5, 0xbe, 0xa3, 0x0e, 0x05, 0x3e, 0xfe, 0x1e, 0x0e, 0xbf,
  0xa4, 0x91, 0x8f, 0x3e, 0x80, 0x6d, 0xb8, 0xbb, 0x50, 0xa0, 0x55, 0x3e,
  0x85, 0x33, 0x94, 0x3e, 0x3c, 0xcf, 0x35, 0xbe, 0xb0, 0x63, 0xab, 0xbe,
  0xeb, 0x9f, 0x12, 0x3e, 0x4a, 0xfb, 0xff, 0xff, 0x04, 0x00, 0x00, 0x00,
  0x00, 0x04, 0x00, 0x00, 0xfe, 0x91, 0x14, 0xbe, 0x6f, 0xe4, 0x4d, 0xbd,
  0x39, 0x40, 0xf4, 0x3e, 0xa4, 0x94, 0xeb, 0x3e, 0xfe, 0x7f, 0xa5, 0x3e,
  0x50, 0x0a, 0xfa, 0xbc, 0x4b, 0xdc, 0x59, 0xbe, 0x8a, 0x36, 0x69, 0x3e,
  0x14, 0x91, 0xd6, 0x3d, 0x8d, 0x4e, 0xb8, 0x3e, 0xc6, 0xe8, 0x67, 0x3e,
  0xf8, 0xbe, 0x7a, 0xbe, 0xbe, 0x23, 0x56, 0x3e, 0xfa, 0x64, 0x66, 0xbe,
  0x98, 0xd2, 0x87, 0xbd, 0xa7, 0x64, 0xac, 0xbe, 0xd6, 0xd8, 0x63, 0x3e,
  0x5f, 0x1c, 0xf3, 0xbe, 0xf1, 0xab, 0xff, 0xbd, 0x77, 0xec, 0x84, 0x3e,
  0xa5, 0x23, 0xe9, 0xbe, 0x78, 0x53, 0x0b, 0xbe, 0x29, 0x20, 0xa2, 0x3e,
  0x00, 0x66, 0xe1, 0xba, 0xb5, 0xbc, 0x92, 0x3e, 0x80, 0x63, 0x0d, 0x3c,
  0x42, 0xa9, 0x8a, 0xbe, 0xe4, 0x2e, 0xe3, 0xbd, 0xfa, 0x26, 0xaf, 0x3e,
  0x2d, 0x79, 0x1a, 0x3e, 0xde, 0x12, 0x64, 0x3e, 0x65, 0xce, 0xc1, 0x3e,
  0xc4, 0xb4, 0x2f, 0xbe, 0xc6, 0xca, 0xc5, 0xbe, 0x97, 0x87, 0xe9, 0x3d,
  0x02, 0x35, 0x81, 0x3e, 0xae, 0x5e, 0xfb, 0xbd, 0xd5, 0xb7, 0x90, 0x3e,
  0x15, 0x51, 0xb6, 0x3e, 0xed, 0x66, 0x90, 0x3e, 0x51, 0xd8, 0x3d, 0xbe,
  0x0f, 0xa1, 0x92, 0xbe, 0x95, 0xe4, 0xd8, 0x3e, 0x34, 0x3e, 0xa2, 0xbd,
  0x6c, 0x63, 0xb7, 0xbe, 0xd6, 0xf6, 0x9e, 0xbe, 0xe9, 0xa8, 0xa8, 0x3e,
  0x02, 0x9f, 0x0b, 0xbe, 0xa0, 0x43, 0x49, 0x3d, 0x7f, 0xe0, 0xa7, 0x3e,
  0xd0, 0x1a, 0x06, 0xbe, 0x04, 0x62, 0x4b, 0xbe, 0xa6, 0x32, 0xa3, 0xbe,
  0xc9, 0xde, 0xd2, 0xbe, 0xb6, 0xcd, 0x43, 0x3e, 0x7e, 0x55, 0x81, 0xbe,
  0x59, 0xf2, 0xa5, 0xbe, 0xd8, 0x59, 0x2d, 0xbe, 0x71, 0x2b, 0xb6, 0xbe,
  0x9c, 0xe4, 0xbe, 0x3d, 0x30, 0x1c, 0x8e, 0xbc, 0x79, 0x7b, 0xd9, 0xbe,
  0xa2, 0x01, 0x18, 0x3e, 0xe6, 0xf0, 0xc6, 0xbe, 0x7c, 0xad, 0xaa, 0x3d,
  0x54, 0x51, 0x24, 0x3f, 0x12, 0xf8, 0x14, 0xbd, 0xbd, 0xb6, 0x78, 0xbe,
  0xd7, 0xec, 0xc8, 0x3e, 0x32, 0xd4, 0x58, 0x3e, 0x48, 0x67, 0x80, 0xbd,
  0x02, 0x1d, 0x10, 0xbe, 0xe3, 0x0a, 0xc7, 0x3e, 0xc5, 0x83, 0xc9, 0x3e,
  0x7b, 0x21, 0xbe, 0xbe, 0x2f, 0xfe, 0xc6, 0xbd, 0x4e, 0xe6, 0x01, 0xbe,
  0x07, 0xd2, 0xf3, 0x3e, 0xce, 0xf6, 0x87, 0xbe, 0xab, 0xc5, 0x8e, 0xbe,
  0xa3, 0xc9, 0xbb, 0x3e, 0x20, 0xf0, 0xf2, 0x3e, 0x19, 0x0a, 0xad, 0xbe,
  0xa8, 0xb2, 0x47, 0x3e, 0x7d, 0x35, 0xeb, 0x3c, 0xe8, 0x6a, 0x15, 0xbe,
  0x40, 0x9e, 0xca, 0x3d, 0x5e, 0xca, 0x4e, 0x3e, 0xa7, 0xe7, 0xc8, 0xbe,
  0x7c, 0x11, 0xf8, 0xbd, 0x92, 0x55, 0xcc, 0xbe, 0xda, 0xda, 0xa9, 0x3e,
  0xc7, 0xcd, 0xb2, 0x3e, 0x38, 0x19, 0x24, 0x3e, 0x15, 0xb8, 0xd1, 0xbe,
  0x9e, 0x70, 0x69, 0x3e, 0xa6, 0xe6, 0x4f, 0x3e, 0xf4, 0x65, 0x36, 0xbe,
  0x74, 0x15, 0xca, 0x3e, 0x10, 0x34, 0xb1, 0x3e, 0xf0, 0x0c, 0x2d, 0xbf,
  0xea, 0x5c, 0x25, 0x3e, 0x58, 0xa5, 0x0a, 0x3e, 0x30, 0x13, 0x33, 0xbe,
  0x13, 0xa0, 0xc4, 0xbe, 0x29, 0x61, 0x9c, 0xbe, 0x60, 0xca, 0x64, 0xbd,
  0xb2, 0x11, 0x39, 0xbe, 0x84, 0x41, 0x4f, 0xbf, 0x19, 0x0d, 0xd3, 0xbe,
  0x00, 0x9e, 0x6e, 0x3c, 0x7b, 0xed, 0xdc, 0x3e, 0x48, 0x98, 0xa8, 0xbe,
  0x56, 0xc2, 0xc5, 0xbe, 0x17, 0x4b, 0x6d, 0x3e, 0xa6, 0x68, 0xe9, 0x3d,
  0x18, 0x0b, 0x6d, 0x3e, 0xc0, 0x47, 0x6b, 0xbd, 0x0e, 0xa5, 0xd2, 0xbe,
  0x27, 0x7b, 0xb8, 0x3e, 0x64, 0xcb, 0xf2, 0x3d, 0xa2, 0xb4, 0x73, 0xbe,
  0x58, 0x21, 0x28, 0x3d, 0x09, 0xe1, 0x4d, 0xbe, 0xd8, 0x77, 0x89, 0x3e,
  0x8b, 0x24, 0x2d, 0x3e, 0x93, 0xf7, 0x9e, 0x3e, 0x8a, 0x32, 0x79, 0x3e,
  0x93, 0x45, 0x98, 0x3e, 0x5d, 0x38, 0x75, 0x3e, 0xcd, 0x4d, 0x9b, 0xbe,
  0xdb, 0x3b, 0x9b, 0xbe, 0x3f, 0x49, 0x18, 0xbe, 0x71, 0x0d, 0xae, 0x3e,
  0x5d, 0x99, 0xbe, 0x3e, 0xac, 0x06, 0x80, 0xbd, 0x67, 0x40, 0x9f, 0xbe,
  0x36, 0x1e, 0x5f, 0x3e, 0xf3, 0x8f, 0xd9, 0x3e, 0xec, 0x7f, 0xf0, 0x3e,
  0xb6, 0xa7, 0x7c, 0x3e, 0xbb, 0x98, 0x9d, 0x3e, 0x68, 0x95, 0xff, 0xbd,
  0x78, 0x09, 0xc4, 0xbe, 0x43, 0xc8, 0xb6, 0x3e, 0x42, 0x37, 0x47, 0x3e,
  0x55, 0xec, 0xbe, 0x3e, 0x3f, 0x24, 0x77, 0xbe, 0x9d, 0x3b, 0xaf, 0xbd,
  0xe5, 0x74, 0xcc, 0x3e, 0xb8, 0x49, 0x4f, 0xbd, 0x20, 0xf5, 0xcc, 0xbd,
  0x10, 0x1d, 0xc4, 0xbe, 0x78, 0xd7, 0x27, 0xbe, 0x35, 0x68, 0xd4, 0x3e,
  0x57, 0x48, 0x9e, 0xbe, 0x05, 0xae, 0xb3, 0xbe, 0x51, 0x90, 0x0b, 0xbe,
  0x60, 0x7c, 0xbb, 0xbd, 0x62, 0xea, 0x55, 0xbe, 0x3b, 0x66, 0xca, 0xbe,
  0x2e, 0x5e, 0x4e, 0x3e, 0xce, 0x23, 0x96, 0xbe, 0x00, 0x33, 0xe0, 0x3b,
  0x18, 0xd6, 0x0f, 0xbd, 0xab, 0x0e, 0x87, 0x3e, 0xe8, 0xdc, 0xd5, 0xbe,
  0xb3, 0x92, 0x9f, 0x3e, 0xbb, 0xd8, 0x9f, 0x3e, 0xf0, 0xd0, 0x1d, 0xbd,
  0x98, 0x77, 0xce, 0xbd, 0x10, 0x27, 0xe7, 0xbc, 0x08, 0x52, 0x6c, 0xbd,
  0x52, 0x92, 0x87, 0xbe, 0xa5, 0xb4, 0xc7, 0x3e, 0x6a, 0xf3, 0x2c, 0xbe,
  0x80, 0x70, 0xe5, 0x3b, 0xd3, 0xe8, 0x46, 0x3e, 0xa1, 0xef, 0xef, 0x3e,
  0xc1, 0x29, 0xa1, 0x3e, 0x50, 0x83, 0xa2, 0x3d, 0xee, 0xa6, 0x25, 0x3e,
  0xbb, 0x5e, 0x9a, 0x3d, 0xaf, 0x36, 0xbd, 0x3e, 0x78, 0x63, 0x04, 0xbd,
  0x98, 0xad, 0x4e, 0x3d, 0x79, 0xeb, 0xbe, 0x3e, 0x29, 0x47, 0x99, 0xbb,
  0x7e, 0x74, 0xde, 0x3d, 0x79, 0x3d, 0xc4, 0x3b, 0x12, 0xd3, 0x1c, 0x3e,
  0xd0, 0x36, 0xf6, 0x3c, 0x66, 0xcc, 0x32, 0x3e, 0x9e, 0x38, 0x52, 0xbe,
  0x93, 0xab, 0x5e, 0x3e, 0xf0, 0x1c, 0xce, 0x3e, 0x19, 0xbe, 0x84, 0xbd,
  0xe2, 0xe6, 0x70, 0x3e, 0xa2, 0x61, 0xd5, 0xbe, 0x29, 0x32, 0xdc, 0x3e,
  0xfc, 0x68, 0xa4, 0xbe, 0xb8, 0x75, 0x6f, 0xbd, 0x4b, 0x07, 0xc5, 0xbe,
  0x2a, 0x19, 0xb2, 0x3e, 0x95, 0x78, 0xb7, 0xbd, 0x81, 0x8d, 0x6b, 0x3e,
  0x59, 0x5c, 0xa7, 0xbe, 0x04, 0x2c, 0xa8, 0xbd, 0x10, 0xe8, 0xbd, 0xbd,
  0xb0, 0x5a, 0x8a, 0x3c, 0xc2, 0x1a, 0x1e, 0x3e, 0xe3, 0xd2, 0x3f, 0xbe,
  0xd5, 0x40, 0xbb, 0xbe, 0x00, 0xf0, 0xe3, 0xbb, 0x74, 0xb5, 0xf6, 0x3d,
  0x29, 0x29, 0x98, 0x3e, 0x82, 0xb5, 0x65, 0x3e, 0xfc, 0x5e, 0xd8, 0xbd,
  0xe0, 0xb1, 0xb3, 0xbe, 0x3d, 0x3b, 0xd4, 0xbe, 0x2a, 0x63, 0x80, 0xbe,
  0x5a, 0x29, 0xd4, 0xbe, 0xda, 0xb4, 0x5f, 0x3e, 0xc3, 0xad, 0xbb, 0x3e,
  0x89, 0xcb, 0x82, 0x3e, 0x1f, 0xc6, 0x65, 0xbe, 0x7c, 0x15, 0xef, 0x3d,
  0x52, 0xc4, 0x05, 0xbe, 0x54, 0x8e, 0x87, 0xbe, 0x46, 0xbc, 0x00, 0xbe,
  0x40, 0xe5, 0x61, 0xbc, 0xc8, 0xcd, 0xd5, 0xbd, 0x9d, 0xfd, 0xa9, 0xbe,
  0x5d, 0x9c, 0xc6, 0xbe, 0xc6, 0xd0, 0x18, 0xbe, 0xc2, 0xe0, 0x8e, 0xbe,
  0xa8, 0x5c, 0xc7, 0xbd, 0x8c, 0xd4, 0xa1, 0x3d, 0x32, 0x22, 0xb0, 0xbe,
  0x8c, 0xd9, 0xb9, 0x3d, 0x36, 0x79, 0xa2, 0xbe, 0x51, 0x14, 0xb4, 0x3e,
  0x8e, 0xb4, 0xa0, 0x3e, 0x53, 0xb3, 0x95, 0x3e, 0x7e, 0xf3, 0xc0, 0xbe,
  0xde, 0x9b, 0x32, 0xbe, 0x4b, 0xff, 0xda, 0x3d, 0x9e, 0xed, 0x49, 0x3e,
  0x90, 0xe7, 0x92, 0xbc, 0x67, 0x23, 0xb1, 0xbe, 0xec, 0x7a, 0xe1, 0x3d,
  0x79, 0x13, 0x61, 0xbd, 0xbd, 0x06, 0xa9, 0xbe, 0x34, 0x75, 0xb5, 0x3e,
  0x9b, 0xdc, 0x91, 0xbe, 0xe4, 0x65, 0xee, 0x3d, 0x56, 0xff, 0xff, 0xff,
  0x04, 0x00, 0x00, 0x00, 0x40, 0x00, 0x00, 0x00, 0x11, 0xd9, 0x9e, 0xbe,
  0xa3, 0xc7, 0xbc, 0x3d, 0x23, 0x32, 0x26, 0x3e, 0xb3, 0x01, 0x27, 0x3e,
  0x8f, 0x02, 0xd0, 0x3e, 0x5b, 0xb1, 0x9d, 0xbe, 0xee, 0x2c, 0x64, 0x3e,
  0x6a, 0xc6, 0xeb, 0xbe, 0x51, 0xda, 0x9c, 0xbe, 0x2a, 0xa0, 0x33, 0xbe,
  0xb7, 0xac, 0x9d, 0xbe, 0x81, 0x63, 0x82, 0x3e, 0x45, 0xf7, 0x15, 0x3f,
  0xc1, 0x63, 0x0d, 0x3f, 0x1a, 0xb0, 0xd5, 0xbe, 0x4c, 0xb2, 0xe8, 0xbd,
  0xa2, 0xff, 0xff, 0xff, 0x04, 0x00, 0x00, 0x00, 0x40, 0x00, 0x00, 0x00,
  0x00, 0x00, 0x00, 0x00, 0x98, 0xd7, 0x03, 0xbe, 0xf1, 0x2b, 0x50, 0x3e,
  0xad, 0x12, 0x45, 0x3e, 0xf4, 0x8a, 0xa4, 0xbe, 0x00, 0x00, 0x00, 0x00,
  0x56, 0x00, 0x56, 0xbe, 0x00, 0x00, 0x00, 0x00, 0x00, 0x00, 0x00, 0x00,
  0x00, 0x00, 0x00, 0x00, 0x00, 0x00, 0x00, 0x00, 0x1e, 0x82, 0x49, 0xbe,
  0x1e, 0x94, 0x39, 0xbe, 0x55, 0x2a, 0x1c, 0xbe, 0x00, 0x00, 0x00, 0x00,
  0x00, 0x00, 0x00, 0x00, 0xee, 0xff, 0xff, 0xff, 0x04, 0x00, 0x00, 0x00,
  0x04, 0x00, 0x00, 0x00, 0xcd, 0xbc, 0x4a, 0x3e, 0x00, 0x00, 0x06, 0x00,
  0x08, 0x00, 0x04, 0x00, 0x06, 0x00, 0x00, 0x00, 0x04, 0x00, 0x00, 0x00,
  0x40, 0x00, 0x00, 0x00, 0xc2, 0x62, 0x7e, 0x3e, 0xc3, 0x1f, 0x4f, 0x3e,
  0xfd, 0x00, 0xbb, 0xbd, 0x00, 0x00, 0x00, 0x00, 0x6a, 0x05, 0x33, 0xbe,
  0x47, 0x02, 0x56, 0xbe, 0x3a, 0x47, 0x8e, 0x3e, 0xc2, 0x6a, 0x52, 0x3e,
  0xc8, 0x59, 0x28, 0xbe, 0x32, 0xfd, 0x14, 0xbd, 0x00, 0x00, 0x00, 0x00,
  0xcd, 0x90, 0x4e, 0x3e, 0x36, 0x8f, 0x52, 0x3e, 0x00, 0x00, 0x00, 0x00,
  0x00, 0x00, 0x00, 0x00, 0x7e, 0xbe, 0xa2, 0x3c, 0x20, 0xfb, 0xff, 0xff,
  0x24, 0xfb, 0xff, 0xff, 0x0f, 0x00, 0x00, 0x00, 0x4d, 0x4c, 0x49, 0x52,
  0x20, 0x43, 0x6f, 0x6e, 0x76, 0x65, 0x72, 0x74, 0x65, 0x64, 0x2e, 0x00,
  0x01, 0x00, 0x00, 0x00, 0x14, 0x00, 0x00, 0x00, 0x00, 0x00, 0x0e, 0x00,
  0x18, 0x00, 0x14, 0x00, 0x10, 0x00, 0x0c, 0x00, 0x08, 0x00, 0x04, 0x00,
  0x0e, 0x00, 0x00, 0x00, 0x14, 0x00, 0x00, 0x00, 0x1c, 0x00, 0x00, 0x00,
  0xd8, 0x00, 0x00, 0x00, 0xdc, 0x00, 0x00, 0x00, 0xe0, 0x00, 0x00, 0x00,
  0x04, 0x00, 0x00, 0x00, 0x6d, 0x61, 0x69, 0x6e, 0x00, 0x00, 0x00, 0x00,
  0x03, 0x00, 0x00, 0x00, 0x80, 0x00, 0x00, 0x00, 0x38, 0x00, 0x00, 0x00,
  0x04, 0x00, 0x00, 0x00, 0x9a, 0xff, 0xff, 0xff, 0x10, 0x00, 0x00, 0x00,
  0x00, 0x00, 0x00, 0x08, 0x0c, 0x00, 0x00, 0x00, 0x10, 0x00, 0x00, 0x00,
  0x9c, 0xfb, 0xff, 0xff, 0x01, 0x00, 0x00, 0x00, 0x09, 0x00, 0x00, 0x00,
  0x03, 0x00, 0x00, 0x00, 0x08, 0x00, 0x00, 0x00, 0x06, 0x00, 0x00, 0x00,
  0x02, 0x00, 0x00, 0x00, 0xca, 0xff, 0xff, 0xff, 0x10, 0x00, 0x00, 0x00,
  0x00, 0x00, 0x00, 0x08, 0x10, 0x00, 0x00, 0x00, 0x14, 0x00, 0x00, 0x00,
  0xba, 0xff, 0xff, 0xff, 0x00, 0x00, 0x00, 0x01, 0x01, 0x00, 0x00, 0x00,
  0x08, 0x00, 0x00, 0x00, 0x03, 0x00, 0x00, 0x00, 0x07, 0x00, 0x00, 0x00,
  0x05, 0x00, 0x00, 0x00, 0x01, 0x00, 0x00, 0x00, 0x00, 0x00, 0x0e, 0x00,
  0x16, 0x00, 0x00, 0x00, 0x10, 0x00, 0x0c, 0x00, 0x0b, 0x00, 0x04, 0x00,
  0x0e, 0x00, 0x00, 0x00, 0x18, 0x00, 0x00, 0x00, 0x00, 0x00, 0x00, 0x08,
  0x18, 0x00, 0x00, 0x00, 0x1c, 0x00, 0x00, 0x00, 0x00, 0x00, 0x06, 0x00,
  0x08, 0x00, 0x07, 0x00, 0x06, 0x00, 0x00, 0x00, 0x00, 0x00, 0x00, 0x01,
  0x01, 0x00, 0x00, 0x00, 0x07, 0x00, 0x00, 0x00, 0x03, 0x00, 0x00, 0x00,
  0x00, 0x00, 0x00, 0x00, 0x04, 0x00, 0x00, 0x00, 0x03, 0x00, 0x00, 0x00,
  0x01, 0x00, 0x00, 0x00, 0x09, 0x00, 0x00, 0x00, 0x01, 0x00, 0x00, 0x00,
  0x00, 0x00, 0x00, 0x00, 0x0a, 0x00, 0x00, 0x00, 0x8c, 0x03, 0x00, 0x00,
  0x1c, 0x03, 0x00, 0x00, 0xac, 0x02, 0x00, 0x00, 0x58, 0x02, 0x00, 0x00,
  0x10, 0x02, 0x00, 0x00, 0xc4, 0x01, 0x00, 0x00, 0x78, 0x01, 0x00, 0x00,
  0xf0, 0x00, 0x00, 0x00, 0x60, 0x00, 0x00, 0x00, 0x04, 0x00, 0x00, 0x00,
  0xb2, 0xfc, 0xff, 0xff, 0x00, 0x00, 0x00, 0x01, 0x14, 0x00, 0x00, 0x00,
  0x1c, 0x00, 0x00, 0x00, 0x1c, 0x00, 0x00, 0x00, 0x0a, 0x00, 0x00, 0x00,
  0x34, 0x00, 0x00, 0x00, 0x02, 0x00, 0x00, 0x00, 0xff, 0xff, 0xff, 0xff,
  0x01, 0x00, 0x00, 0x00, 0x9c, 0xfc, 0xff, 0xff, 0x19, 0x00, 0x00, 0x00,
  0x53, 0x74, 0x61, 0x74, 0x65, 0x66, 0x75, 0x6c, 0x50, 0x61, 0x72, 0x74,
  0x69, 0x74, 0x69, 0x6f, 0x6e, 0x65, 0x64, 0x43, 0x61, 0x6c, 0x6c, 0x3a,
  0x30, 0x00, 0x00, 0x00, 0x02, 0x00, 0x00, 0x00, 0x01, 0x00, 0x00, 0x00,
  0x01, 0x00, 0x00, 0x00, 0x0a, 0xfd, 0xff, 0xff, 0x00, 0x00, 0x00, 0x01,
  0x14, 0x00, 0x00, 0x00, 0x1c, 0x00, 0x00, 0x00, 0x1c, 0x00, 0x00, 0x00,
  0x09, 0x00, 0x00, 0x00, 0x68, 0x00, 0x00, 0x00, 0x02, 0x00, 0x00, 0x00,
  0xff, 0xff, 0xff, 0xff, 0x10, 0x00, 0x00, 0x00, 0xf4, 0xfc, 0xff, 0xff,
  0x4c, 0x00, 0x00, 0x00, 0x73, 0x65, 0x71, 0x75, 0x65, 0x6e, 0x74, 0x69,
  0x61, 0x6c, 0x2f, 0x64, 0x65, 0x6e, 0x73, 0x65, 0x5f, 0x31, 0x2f, 0x4d,
  0x61, 0x74, 0x4d, 0x75, 0x6c, 0x3b, 0x73, 0x65, 0x71, 0x75, 0x65, 0x6e,
  0x74, 0x69, 0x61, 0x6c, 0x2f, 0x64, 0x65, 0x6e, 0x73, 0x65, 0x5f, 0x31,
  0x2f, 0x52, 0x65, 0x6c, 0x75, 0x3b, 0x73, 0x65, 0x71, 0x75, 0x65, 0x6e,
  0x74, 0x69, 0x61, 0x6c, 0x2f, 0x64, 0x65, 0x6e, 0x73, 0x65, 0x5f, 0x31,
  0x2f, 0x42, 0x69, 0x61, 0x73, 0x41, 0x64, 0x64, 0x00, 0x00, 0x00, 0x00,
  0x02, 0x00, 0x00, 0x00, 0x01, 0x00, 0x00, 0x00, 0x10, 0x00, 0x00, 0x00,
  0x96, 0xfd, 0xff, 0xff, 0x00, 0x00, 0x00, 0x01, 0x14, 0x00, 0x00, 0x00,
  0x1c, 0x00, 0x00, 0x00, 0x1c, 0x00, 0x00, 0x00, 0x08, 0x00, 0x00, 0x00,
  0x60, 0x00, 0x00, 0x00, 0x02, 0x00, 0x00, 0x00, 0xff, 0xff, 0xff, 0xff,
  0x10, 0x00, 0x00, 0x00, 0x80, 0xfd, 0xff, 0xff, 0x46, 0x00, 0x00, 0x00,
  0x73, 0x65, 0x71, 0x75, 0x65, 0x6e, 0x74, 0x69, 0x61, 0x6c, 0x2f, 0x64,
  0x65, 0x6e, 0x73, 0x65, 0x2f, 0x4d, 0x61, 0x74, 0x4d, 0x75, 0x6c, 0x3b,
  0x73, 0x65, 0x71, 0x75, 0x65, 0x6e, 0x74, 0x69, 0x61, 0x6c, 0x2f, 0x64,
  0x65, 0x6e, 0x73, 0x65, 0x2f, 0x52, 0x65, 0x6c, 0x75, 0x3b, 0x73, 0x65,
  0x71, 0x75, 0x65, 0x6e, 0x74, 0x69, 0x61, 0x6c, 0x2f, 0x64, 0x65, 0x6e,
  0x73, 0x65, 0x2f, 0x42, 0x69, 0x61, 0x73, 0x41, 0x64, 0x64, 0x00, 0x00,
  0x02, 0x00, 0x00, 0x00, 0x01, 0x00, 0x00, 0x00, 0x10, 0x00, 0x00, 0x00,
  0x86, 0xfe, 0xff, 0xff, 0x00, 0x00, 0x00, 0x01, 0x10, 0x00, 0x00, 0x00,
  0x10, 0x00, 0x00, 0x00, 0x07, 0x00, 0x00, 0x00, 0x28, 0x00, 0x00, 0x00,
  0xf4, 0xfd, 0xff, 0xff, 0x19, 0x00, 0x00, 0x00, 0x73, 0x65, 0x71, 0x75,
  0x65, 0x6e, 0x74, 0x69, 0x61, 0x6c, 0x2f, 0x64, 0x65, 0x6e, 0x73, 0x65,
  0x5f, 0x32, 0x2f, 0x4d, 0x61, 0x74, 0x4d, 0x75, 0x6c, 0x00, 0x00, 0x00,
  0x02, 0x00, 0x00, 0x00, 0x01, 0x00, 0x00, 0x00, 0x10, 0x00, 0x00, 0x00,
  0xce, 0xfe, 0xff, 0xff, 0x00, 0x00, 0x00, 0x01, 0x10, 0x00, 0x00, 0x00,
  0x10, 0x00, 0x00, 0x00, 0x06, 0x00, 0x00, 0x00, 0x28, 0x00, 0x00, 0x00,
  0x3c, 0xfe, 0xff, 0xff, 0x19, 0x00, 0x00, 0x00, 0x73, 0x65, 0x71, 0x75,
  0x65, 0x6e, 0x74, 0x69, 0x61, 0x6c, 0x2f, 0x64, 0x65, 0x6e, 0x73, 0x65,
  0x5f, 0x31, 0x2f, 0x4d, 0x61, 0x74, 0x4d, 0x75, 0x6c, 0x00, 0x00, 0x00,
  0x02, 0x00, 0x00, 0x00, 0x10, 0x00, 0x00, 0x00, 0x10, 0x00, 0x00, 0x00,
  0x16, 0xff, 0xff, 0xff, 0x00, 0x00, 0x00, 0x01, 0x10, 0x00, 0x00, 0x00,
  0x10, 0x00, 0x00, 0x00, 0x05, 0x00, 0x00, 0x00, 0x24, 0x00, 0x00, 0x00,
  0x84, 0xfe, 0xff, 0xff, 0x17, 0x00, 0x00, 0x00, 0x73, 0x65, 0x71, 0x75,
  0x65, 0x6e, 0x74, 0x69, 0x61, 0x6c, 0x2f, 0x64, 0x65, 0x6e, 0x73, 0x65,
  0x2f, 0x4d, 0x61, 0x74, 0x4d, 0x75, 0x6c, 0x00, 0x02, 0x00, 0x00, 0x00,
  0x10, 0x00, 0x00, 0x00, 0x01, 0x00, 0x00, 0x00, 0x5a, 0xff, 0xff, 0xff,
  0x00, 0x00, 0x00, 0x01, 0x10, 0x00, 0x00, 0x00, 0x10, 0x00, 0x00, 0x00,
  0x04, 0x00, 0x00, 0x00, 0x34, 0x00, 0x00, 0x00, 0xc8, 0xfe, 0xff, 0xff,
  0x27, 0x00, 0x00, 0x00, 0x73, 0x65, 0x71, 0x75, 0x65, 0x6e, 0x74, 0x69,
  0x61, 0x6c, 0x2f, 0x64, 0x65, 0x6e, 0x73, 0x65, 0x2f, 0x42, 0x69, 0x61,
  0x73, 0x41, 0x64, 0x64, 0x2f, 0x52, 0x65, 0x61, 0x64, 0x56, 0x61, 0x72,
  0x69, 0x61, 0x62, 0x6c, 0x65, 0x4f, 0x70, 0x00, 0x01, 0x00, 0x00, 0x00,
  0x10, 0x00, 0x00, 0x00, 0xaa, 0xff, 0xff, 0xff, 0x00, 0x00, 0x00, 0x01,
  0x10, 0x00, 0x00, 0x00, 0x10, 0x00, 0x00, 0x00, 0x03, 0x00, 0x00, 0x00,
  0x38, 0x00, 0x00, 0x00, 0x18, 0xff, 0xff, 0xff, 0x29, 0x00, 0x00, 0x00,
  0x73, 0x65, 0x71, 0x75, 0x65, 0x6e, 0x74, 0x69, 0x61, 0x6c, 0x2f, 0x64,
  0x65, 0x6e, 0x73, 0x65, 0x5f, 0x32, 0x2f, 0x42, 0x69, 0x61, 0x73, 0x41,
  0x64, 0x64, 0x2f, 0x52, 0x65, 0x61, 0x64, 0x56, 0x61, 0x72, 0x69, 0x61,
  0x62, 0x6c, 0x65, 0x4f, 0x70, 0x00, 0x00, 0x00, 0x01, 0x00, 0x00, 0x00,
  0x01, 0x00, 0x00, 0x00, 0x00, 0x00, 0x16, 0x00, 0x18, 0x00, 0x14, 0x00,
  0x00, 0x00, 0x10, 0x00, 0x0c, 0x00, 0x08, 0x00, 0x00, 0x00, 0x00, 0x00,
  0x00, 0x00, 0x07, 0x00, 0x16, 0x00, 0x00, 0x00, 0x00, 0x00, 0x00, 0x01,
  0x10, 0x00, 0x00, 0x00, 0x10, 0x00, 0x00, 0x00, 0x02, 0x00, 0x00, 0x00,
  0x38, 0x00, 0x00, 0x00, 0x84, 0xff, 0xff, 0xff, 0x29, 0x00, 0x00, 0x00,
  0x73, 0x65, 0x71, 0x75, 0x65, 0x6e, 0x74, 0x69, 0x61, 0x6c, 0x2f, 0x64,
  0x65, 0x6e, 0x73, 0x65, 0x5f, 0x31, 0x2f, 0x42, 0x69, 0x61, 0x73, 0x41,
  0x64, 0x64, 0x2f, 0x52, 0x65, 0x61, 0x64, 0x56, 0x61, 0x72, 0x69, 0x61,
  0x62, 0x6c, 0x65, 0x4f, 0x70, 0x00, 0x00, 0x00, 0x01, 0x00, 0x00, 0x00,
  0x10, 0x00, 0x00, 0x00, 0x00, 0x00, 0x16, 0x00, 0x1c, 0x00, 0x18, 0x00,
  0x00, 0x00, 0x14, 0x00, 0x10, 0x00, 0x0c, 0x00, 0x00, 0x00, 0x00, 0x00,
  0x08, 0x00, 0x07, 0x00, 0x16, 0x00, 0x00, 0x00, 0x00, 0x00, 0x00, 0x01,
  0x14, 0x00, 0x00, 0x00, 0x20, 0x00, 0x00, 0x00, 0x20, 0x00, 0x00, 0x00,
  0x01, 0x00, 0x00, 0x00, 0x3c, 0x00, 0x00, 0x00, 0x02, 0x00, 0x00, 0x00,
  0xff, 0xff, 0xff, 0xff, 0x01, 0x00, 0x00, 0x00, 0x04, 0x00, 0x04, 0x00,
  0x04, 0x00, 0x00, 0x00, 0x1d, 0x00, 0x00, 0x00, 0x73, 0x65, 0x72, 0x76,
  0x69, 0x6e, 0x67, 0x5f, 0x64, 0x65, 0x66, 0x61, 0x75, 0x6c, 0x74, 0x5f,
  0x64, 0x65, 0x6e, 0x73, 0x65, 0x5f, 0x69, 0x6e, 0x70, 0x75, 0x74, 0x3a,
  0x30, 0x00, 0x00, 0x00, 0x02, 0x00, 0x00, 0x00, 0x01, 0x00, 0x00, 0x00,
  0x01, 0x00, 0x00, 0x00, 0x01, 0x00, 0x00, 0x00, 0x10, 0x00, 0x00, 0x00,
  0x0c, 0x00, 0x0c, 0x00, 0x0b, 0x00, 0x00, 0x00, 0x00, 0x00, 0x04, 0x00,
  0x0c, 0x00, 0x00, 0x00, 0x09, 0x00, 0x00, 0x00, 0x00, 0x00, 0x00, 0x09
};
unsigned int _home_heon_repositories_tinyML_projects_sin_wave_sine_model_quantized_tflite_len = 3168;
